{
    "<UNK>": 0,
    "<PAD>": 1,
    "<BOS>": 2,
    "<EOS>": 3,
    "te": 4,
    "lüğ": 5,
    "başkan": 6,
    "bin": 7,
    "isini": 8,
    "ono": 9,
    "1934": 10,
    "han": 11,
    "raf": 12,
    "ω": 13,
    "böylece": 14,
    "günümüzde": 15,
    "ο": 16,
    "sebep": 17,
    "üz": 18,
    "iran": 19,
    "iler": 20,
    "fer": 21,
    "ımı": 22,
    "vatandaş": 23,
    "büyük": 24,
    "mas": 25,
    "is": 26,
    "modern": 27,
    "izmir": 28,
    "yüz": 29,
    "kenin": 30,
    "kr": 31,
    "olması": 32,
    "ndaki": 33,
    "lerinde": 34,
    "milli": 35,
    "lerinden": 36,
    "içi": 37,
    "alt": 38,
    "yun": 39,
    "nedeniyle": 40,
    "açık": 41,
    "alık": 42,
    "mak": 43,
    "oğ": 44,
    "erkek": 45,
    "başladı": 46,
    ",": 47,
    "dığını": 48,
    "mada": 49,
    "graf": 50,
    "bölüm": 51,
    "unvan": 52,
    "sila": 53,
    "rum": 54,
    "iy": 55,
    "istedi": 56,
    "sü": 57,
    "cumhurbaşkanı": 58,
    "bek": 59,
    "خ": 60,
    "hükûmet": 61,
    "yerleş": 62,
    "buna": 63,
    "ster": 64,
    "liği": 65,
    "imparatorlu": 66,
    "leş": 67,
    "unda": 68,
    "it": 69,
    "inin": 70,
    "adı": 71,
    "ine": 72,
    "bor": 73,
    "un": 74,
    "başar": 75,
    "mec": 76,
    "sonuç": 77,
    "iti": 78,
    "2": 79,
    "bırak": 80,
    "tır": 81,
    "mesine": 82,
    "türkmen": 83,
    "ʿ": 84,
    "›": 85,
    "39": 86,
    "ú": 87,
    "sos": 88,
    "trablus": 89,
    "mü": 90,
    "yon": 91,
    "gerçekleş": 92,
    "ی": 93,
    "ilişkiler": 94,
    "uyg": 95,
    "cami": 96,
    "ıı": 97,
    "ur": 98,
    "lus": 99,
    "56": 100,
    "tü": 101,
    "6": 102,
    "üç": 103,
    "etnik": 104,
    "genç": 105,
    "özel": 106,
    "köprü": 107,
    "ren": 108,
    "tu": 109,
    "vur": 110,
    "sını": 111,
    "ortaya": 112,
    "cılık": 113,
    "tan": 114,
    "larla": 115,
    "baz": 116,
    "likle": 117,
    "bakır": 118,
    "va": 119,
    "ması": 120,
    "sırasında": 121,
    "diplomatik": 122,
    "rek": 123,
    "azam": 124,
    "saldır": 125,
    "%": 126,
    "yapıl": 127,
    "düşün": 128,
    "açıldı": 129,
    "iyon": 130,
    "doğal": 131,
    "beş": 132,
    "kongre": 133,
    "x": 134,
    "bölge": 135,
    "aile": 136,
    "karabekir": 137,
    "25": 138,
    "nde": 139,
    "ard": 140,
    "laş": 141,
    "asker": 142,
    "β": 143,
    "yal": 144,
    ".": 145,
    "hin": 146,
    "zey": 147,
    "sal": 148,
    "ahmet": 149,
    "havali": 150,
    "tarihi": 151,
    "söz": 152,
    "ven": 153,
    "ut": 154,
    "yunanistan": 155,
    "uzun": 156,
    "pro": 157,
    "fin": 158,
    "olarak": 159,
    "ara": 160,
    "bugünkü": 161,
    "yapı": 162,
    "günü": 163,
    "bulgar": 164,
    "—": 165,
    "tüm": 166,
    "sürdür": 167,
    "uygul": 168,
    "kut": 169,
    "fu": 170,
    "etmiş": 171,
    "ant": 172,
    "kü": 173,
    "altında": 174,
    "edirne": 175,
    "oto": 176,
    "alı": 177,
    "45": 178,
    "tama": 179,
    "adlandır": 180,
    "mış": 181,
    "alman": 182,
    "ünü": 183,
    "lerin": 184,
    "balkan": 185,
    "ifa": 186,
    "için": 187,
    "i": 188,
    "hizmet": 189,
    "ī": 190,
    "get": 191,
    "başlamıştır": 192,
    "ydı": 193,
    "siyas": 194,
    "cı": 195,
    "başkenti": 196,
    "ulaş": 197,
    "taşı": 198,
    "190": 199,
    "188": 200,
    "milliyet": 201,
    "leriyle": 202,
    "yapılan": 203,
    "birlikte": 204,
    "ύ": 205,
    "kim": 206,
    "tekrar": 207,
    "resmî": 208,
    "ist": 209,
    "ih": 210,
    "do": 211,
    "bo": 212,
    "ât": 213,
    "ev": 214,
    "bası": 215,
    "199": 216,
    "imi": 217,
    "fran": 218,
    "değ": 219,
    "bildir": 220,
    "istik": 221,
    ":": 222,
    "öl": 223,
    "dığı": 224,
    "layı": 225,
    "bulunduğu": 226,
    "bah": 227,
    "ziyaret": 228,
    "tanın": 229,
    "sanayi": 230,
    "lar": 231,
    "ة": 232,
    "zaman": 233,
    "nin": 234,
    "larına": 235,
    ")": 236,
    "bar": 237,
    "ala": 238,
    "taraf": 239,
    "imz": 240,
    "м": 241,
    "ingiliz": 242,
    "os": 243,
    "göz": 244,
    "ştür": 245,
    "hal": 246,
    "yabancı": 247,
    "ci": 248,
    "tas": 249,
    "alındı": 250,
    "olup": 251,
    "id": 252,
    "yi": 253,
    "bunun": 254,
    "bütün": 255,
    "parç": 256,
    "yetk": 257,
    "bağım": 258,
    "yerleşim": 259,
    "ya": 260,
    "altına": 261,
    "art": 262,
    "ile": 263,
    "23": 264,
    "larından": 265,
    "ol": 266,
    "landı": 267,
    "k": 268,
    "biri": 269,
    "hur": 270,
    "temel": 271,
    "bulun": 272,
    "edi": 273,
    "yahu": 274,
    "mart": 275,
    "diğer": 276,
    "97": 277,
    "ü": 278,
    "kültür": 279,
    "mo": 280,
    "ba": 281,
    "küç": 282,
    "sayı": 283,
    "şer": 284,
    "kurtuluş": 285,
    "am": 286,
    "ti": 287,
    "edebiyat": 288,
    "gibi": 289,
    "böyle": 290,
    "zamanında": 291,
    "si": 292,
    "başkanı": 293,
    "”": 294,
    "terakki": 295,
    "be": 296,
    "ıs": 297,
    "val": 298,
    "ermeni": 299,
    "siz": 300,
    "ında": 301,
    "ede": 302,
    "başı": 303,
    "faaliyet": 304,
    "sa": 305,
    "göl": 306,
    "reform": 307,
    "ing": 308,
    "km": 309,
    "milliyetç": 310,
    "ortal": 311,
    "olma": 312,
    "hük": 313,
    "çevre": 314,
    "mecl": 315,
    "tat": 316,
    "sefer": 317,
    "topl": 318,
    "pa": 319,
    "şu": 320,
    "sarayı": 321,
    "olo": 322,
    "yakası": 323,
    "üp": 324,
    "eğ": 325,
    "gerek": 326,
    "oğraf": 327,
    "sahipliği": 328,
    "ej": 329,
    "mm": 330,
    "topkapı": 331,
    "ateş": 332,
    "kanunu": 333,
    "tay": 334,
    "meli": 335,
    "lama": 336,
    "dön": 337,
    "işgal": 338,
    "coğraf": 339,
    "rıza": 340,
    "yap": 341,
    "öğret": 342,
    "hami": 343,
    "fen": 344,
    "anı": 345,
    "isinde": 346,
    "amacı": 347,
    "ulus": 348,
    "meh": 349,
    "yerel": 350,
    "birçok": 351,
    "ümüz": 352,
    "fethi": 353,
    "çı": 354,
    "yerine": 355,
    "ait": 356,
    "oğul": 357,
    "na": 358,
    "ru": 359,
    "köy": 360,
    "fe": 361,
    "dış": 362,
    "dın": 363,
    "miştir": 364,
    "26": 365,
    "𐰺": 366,
    "şit": 367,
    "ından": 368,
    "birleş": 369,
    "sıra": 370,
    "en": 371,
    "eti": 372,
    "if": 373,
    "başarı": 374,
    "kapı": 375,
    "haberleşme": 376,
    "larını": 377,
    "birinci": 378,
    "devleti": 379,
    "ع": 380,
    "ad": 381,
    "inönü": 382,
    "12": 383,
    "başla": 384,
    "liğ": 385,
    "çev": 386,
    "yeniçer": 387,
    "oldu": 388,
    "anlat": 389,
    "haber": 390,
    "vekili": 391,
    "lise": 392,
    "anan": 393,
    "şam": 394,
    "can": 395,
    "yunan": 396,
    "örgüt": 397,
    "yılındaki": 398,
    "yanın": 399,
    "lu": 400,
    "meydana": 401,
    "kemal": 402,
    "isim": 403,
    "â": 404,
    "l": 405,
    "sar": 406,
    "şir": 407,
    "mö": 408,
    "yolu": 409,
    "ulu": 410,
    "bakan": 411,
    "ğında": 412,
    "onu": 413,
    "imparatorluk": 414,
    "ا": 415,
    "fa": 416,
    "izm": 417,
    "қ": 418,
    "ι": 419,
    "se": 420,
    "yaygın": 421,
    "toplan": 422,
    "az": 423,
    "muharebesi": 424,
    "im": 425,
    "sor": 426,
    "uğr": 427,
    "ıldı": 428,
    "tarım": 429,
    "çe": 430,
    "afrika": 431,
    "zengin": 432,
    "vardı": 433,
    "ünde": 434,
    "manı": 435,
    "dül": 436,
    "yaklaş": 437,
    "mut": 438,
    "selim": 439,
    "dip": 440,
    "24": 441,
    "doğum": 442,
    "öğr": 443,
    "asında": 444,
    "hattı": 445,
    "kuruluş": 446,
    "mekte": 447,
    "hat": 448,
    "ini": 449,
    "tanı": 450,
    "üye": 451,
    "dayan": 452,
    "sayısı": 453,
    "asar": 454,
    "el": 455,
    "ama": 456,
    "kaynak": 457,
    "nak": 458,
    "ordus": 459,
    "karş": 460,
    "masından": 461,
    "başında": 462,
    "türk": 463,
    "kasım": 464,
    "gal": 465,
    "savaşları": 466,
    "deniz": 467,
    "azınlık": 468,
    "yen": 469,
    "dinî": 470,
    "kuzey": 471,
    "hız": 472,
    "enin": 473,
    "22": 474,
    "dele": 475,
    "mahke": 476,
    "güç": 477,
    "(": 478,
    "yor": 479,
    "sebebiyle": 480,
    "dev": 481,
    "efendi": 482,
    "yine": 483,
    "yeni": 484,
    "bir": 485,
    "hüküm": 486,
    "daki": 487,
    "ca": 488,
    "subay": 489,
    "iç": 490,
    "lerdir": 491,
    "sağlık": 492,
    "itibaren": 493,
    "ς": 494,
    "hâl": 495,
    "verildi": 496,
    "birliği": 497,
    "ermen": 498,
    "günümüz": 499,
    "hareket": 500,
    "nazırı": 501,
    "ce": 502,
    "$": 503,
    "ن": 504,
    "bulunan": 505,
    "ılmıştır": 506,
    "ünün": 507,
    "nüfus": 508,
    "pre": 509,
    "len": 510,
    "21": 511,
    "aralık": 512,
    "düzenli": 513,
    "tı": 514,
    "as": 515,
    "ت": 516,
    "bn": 517,
    "af": 518,
    "198": 519,
    "verdi": 520,
    "öldü": 521,
    "s": 522,
    "kurum": 523,
    "mac": 524,
    "aya": 525,
    "kral": 526,
    "ne": 527,
    "saat": 528,
    "hi": 529,
    "dis": 530,
    "sini": 531,
    "uzak": 532,
    "99": 533,
    "meşru": 534,
    "getirdi": 535,
    "geli": 536,
    "dünyanın": 537,
    "hede": 538,
    "asya": 539,
    "hristiyan": 540,
    "paşa": 541,
    "sahiptir": 542,
    "-": 543,
    "cü": 544,
    "α": 545,
    "savaşın": 546,
    "bur": 547,
    "erdi": 548,
    "kalan": 549,
    "asyon": 550,
    "bağımsız": 551,
    "yürü": 552,
    "fransız": 553,
    "mı": 554,
    "tik": 555,
    "lev": 556,
    "kur": 557,
    "ları": 558,
    "ي": 559,
    "yoğ": 560,
    "gö": 561,
    "1908": 562,
    "çer": 563,
    "etim": 564,
    "burada": 565,
    "padişah": 566,
    "isine": 567,
    "po": 568,
    "idar": 569,
    "verilen": 570,
    "siv": 571,
    "nun": 572,
    "iyle": 573,
    "le": 574,
    "cez": 575,
    "iği": 576,
    "öz": 577,
    "karde": 578,
    "kanun": 579,
    "toprak": 580,
    "yer": 581,
    "bilim": 582,
    "lü": 583,
    "ölçüde": 584,
    "tara": 585,
    "j": 586,
    "f": 587,
    "rumeli": 588,
    "kendi": 589,
    "27": 590,
    "b": 591,
    "yalnız": 592,
    "stantin": 593,
    "isyan": 594,
    "²": 595,
    "çıkan": 596,
    "ince": 597,
    "farklı": 598,
    "yaş": 599,
    "π": 600,
    "önemli": 601,
    "yasa": 602,
    "alanı": 603,
    "hak": 604,
    "millî": 605,
    "miş": 606,
    "yayın": 607,
    "ete": 608,
    "lı": 609,
    "olmuştur": 610,
    "sistem": 611,
    "edildi": 612,
    "denizi": 613,
    "dört": 614,
    "sof": 615,
    "şı": 616,
    "tel": 617,
    "500": 618,
    "1453": 619,
    "ceph": 620,
    "veril": 621,
    "\"": 622,
    "σ": 623,
    "dı": 624,
    "h": 625,
    "uldu": 626,
    "hı": 627,
    "kır": 628,
    "tutuk": 629,
    "çatı": 630,
    "ot": 631,
    "cumhurbaşkan": 632,
    "mî": 633,
    "53": 634,
    "avus": 635,
    "ılmış": 636,
    "maya": 637,
    "larında": 638,
    "hükümdar": 639,
    "üst": 640,
    "eden": 641,
    "düz": 642,
    "kuşat": 643,
    "muştur": 644,
    "ε": 645,
    "′": 646,
    "mesiyle": 647,
    "ör": 648,
    "cu": 649,
    "başlangı": 650,
    "önder": 651,
    "cemiyeti": 652,
    "etti": 653,
    "30": 654,
    "kez": 655,
    "sıcak": 656,
    "mat": 657,
    "kuş": 658,
    "etmek": 659,
    "ler": 660,
    "ban": 661,
    "gar": 662,
    "ila": 663,
    "υ": 664,
    "oy": 665,
    "dir": 666,
    "sırada": 667,
    "yıllarında": 668,
    "rat": 669,
    "etk": 670,
    "yan": 671,
    "metro": 672,
    "örnek": 673,
    "40": 674,
    "vatan": 675,
    "kısı": 676,
    "meşrutiyet": 677,
    "ǧ": 678,
    "sine": 679,
    "ağ": 680,
    "başka": 681,
    "tbmm": 682,
    "görül": 683,
    "top": 684,
    "vah": 685,
    "amacıyla": 686,
    "lanan": 687,
    "rusya": 688,
    "de": 689,
    "rı": 690,
    "biz": 691,
    "γ": 692,
    "mimar": 693,
    "yük": 694,
    "yürür": 695,
    "lığını": 696,
    "mesi": 697,
    "sav": 698,
    "müf": 699,
    "imiz": 700,
    "öğren": 701,
    "fuat": 702,
    "gelen": 703,
    "lardan": 704,
    "2013": 705,
    "şehr": 706,
    "türkçe": 707,
    "w": 708,
    "lardır": 709,
    "ika": 710,
    "kurulan": 711,
    "alın": 712,
    "rağ": 713,
    "zamanda": 714,
    "sı": 715,
    "demir": 716,
    "anlaş": 717,
    "tepe": 718,
    "kuvvet": 719,
    "önce": 720,
    "pay": 721,
    "meclis": 722,
    "ortalama": 723,
    "bahçe": 724,
    "döneminde": 725,
    "şeh": 726,
    "şekilde": 727,
    "kenti": 728,
    "ittifak": 729,
    "ceği": 730,
    "geniş": 731,
    "boğ": 732,
    "isken": 733,
    "ko": 734,
    "tör": 735,
    "ilgili": 736,
    "inan": 737,
    "kuru": 738,
    "masının": 739,
    "kili": 740,
    "sem": 741,
    "ele": 742,
    "kâzım": 743,
    "temsil": 744,
    "gen": 745,
    "p": 746,
    "siste": 747,
    "biye": 748,
    "cumhuriyeti": 749,
    "es": 750,
    "politika": 751,
    "doğ": 752,
    "müca": 753,
    "20": 754,
    "fev": 755,
    "du": 756,
    "man": 757,
    "di": 758,
    "erken": 759,
    "ili": 760,
    "ğını": 761,
    "yaban": 762,
    "uz": 763,
    "sahi": 764,
    "balkanlar": 765,
    "[": 766,
    "diler": 767,
    "ans": 768,
    "gaz": 769,
    "imparatorluğu": 770,
    "kadar": 771,
    "ön": 772,
    "tar": 773,
    "içer": 774,
    "4": 775,
    "sonucunda": 776,
    "lık": 777,
    "sebeb": 778,
    "17": 779,
    "kayı": 780,
    "emir": 781,
    "kullan": 782,
    "ılı": 783,
    "ııı": 784,
    "ülke": 785,
    "ilir": 786,
    "cil": 787,
    "dır": 788,
    "bizans": 789,
    "kon": 790,
    "1914": 791,
    "geç": 792,
    "al": 793,
    "yıl": 794,
    "unun": 795,
    "yay": 796,
    "fik": 797,
    "avusturya": 798,
    "za": 799,
    "türkiye": 800,
    "a": 801,
    "merkez": 802,
    "don": 803,
    "boğaziçi": 804,
    "ihtiya": 805,
    "hâkimiyet": 806,
    "bat": 807,
    "karar": 808,
    "urum": 809,
    "başkent": 810,
    "selanik": 811,
    "ire": 812,
    "yüksek": 813,
    "ını": 814,
    "trab": 815,
    "devam": 816,
    "geçti": 817,
    "tah": 818,
    "beraber": 819,
    "ış": 820,
    "yu": 821,
    "mıştı": 822,
    "önem": 823,
    "sahip": 824,
    "ındaki": 825,
    "ma": 826,
    "bel": 827,
    "deki": 828,
    "şehri": 829,
    "ف": 830,
    "eyi": 831,
    "sak": 832,
    "mem": 833,
    "baş": 834,
    "erzurum": 835,
    "konuş": 836,
    "lerinin": 837,
    "zım": 838,
    "müslüman": 839,
    "landır": 840,
    "ō": 841,
    "mıştır": 842,
    "tür": 843,
    "ingiltere": 844,
    "kap": 845,
    "girdi": 846,
    "komu": 847,
    "lenen": 848,
    "part": 849,
    "mek": 850,
    "mar": 851,
    "mevcut": 852,
    "başlan": 853,
    "şeklinde": 854,
    "saltan": 855,
    "edebi": 856,
    "yok": 857,
    "üzere": 858,
    "yur": 859,
    "mutfak": 860,
    "iyi": 861,
    "kom": 862,
    "yanında": 863,
    "üzer": 864,
    "işleri": 865,
    "11": 866,
    "ç": 867,
    "iye": 868,
    "kaç": 869,
    "gür": 870,
    "ık": 871,
    "sağ": 872,
    "iklim": 873,
    "çoğu": 874,
    "ulusal": 875,
    "harek": 876,
    "ekonomik": 877,
    "yüzyılın": 878,
    "yıllık": 879,
    "’": 880,
    "kları": 881,
    "orto": 882,
    "kısa": 883,
    "uy": 884,
    "ağustos": 885,
    "başlı": 886,
    "gayr": 887,
    "𐰚": 888,
    "dan": 889,
    "1919": 890,
    "güney": 891,
    "ue": 892,
    "fakat": 893,
    "dere": 894,
    "örgü": 895,
    "yür": 896,
    "mel": 897,
    "kesin": 898,
    "̲": 899,
    "t": 900,
    "min": 901,
    "geliş": 902,
    "ip": 903,
    "muz": 904,
    "sınıf": 905,
    "tılar": 906,
    "önü": 907,
    "atan": 908,
    "𐱅": 909,
    "üniversite": 910,
    "kan": 911,
    "lendi": 912,
    "ay": 913,
    "şamp": 914,
    "=": 915,
    "kat": 916,
    "bay": 917,
    "ilmesi": 918,
    "ali": 919,
    "müslü": 920,
    "met": 921,
    "zen": 922,
    "büt": 923,
    "nik": 924,
    "saray": 925,
    "sağla": 926,
    "60": 927,
    "nisan": 928,
    "cep": 929,
    "taş": 930,
    "masına": 931,
    "düş": 932,
    "lerini": 933,
    "eyh": 934,
    "söyle": 935,
    "kent": 936,
    "osman": 937,
    "devlet": 938,
    "ederek": 939,
    "selçuklu": 940,
    "]": 941,
    "ğun": 942,
    "192": 943,
    "nite": 944,
    "û": 945,
    "yar": 946,
    "arka": 947,
    "başlandı": 948,
    "mim": 949,
    "for": 950,
    "29": 951,
    "ilerin": 952,
    "itibar": 953,
    "1918": 954,
    "lozan": 955,
    "suriye": 956,
    "τ": 957,
    "büyü": 958,
    "oğlu": 959,
    "λ": 960,
    "vak": 961,
    "esinde": 962,
    "2023": 963,
    "lığına": 964,
    "م": 965,
    "c": 966,
    "er": 967,
    "türklerin": 968,
    "fransa": 969,
    "yı": 970,
    "içinde": 971,
    "ey": 972,
    "dışında": 973,
    "hâ": 974,
    "arası": 975,
    "çıktı": 976,
    "iste": 977,
    "mes": 978,
    "ştur": 979,
    "ke": 980,
    "kız": 981,
    "hakkı": 982,
    "on": 983,
    "him": 984,
    "ه": 985,
    "üs": 986,
    "muhare": 987,
    "düzen": 988,
    "kuvvetleri": 989,
    "uluslararası": 990,
    "ah": 991,
    "ğü": 992,
    "و": 993,
    "mir": 994,
    "sta": 995,
    "şekil": 996,
    "para": 997,
    "göç": 998,
    "vardır": 999,
    "0": 1000,
    "tere": 1001,
    "enver": 1002,
    "𐰜": 1003,
    "arasında": 1004,
    "ayır": 1005,
    "gru": 1006,
    "meşruti": 1007,
    "maktaydı": 1008,
    "savaşı": 1009,
    "bi": 1010,
    "bağ": 1011,
    "cum": 1012,
    "ikinci": 1013,
    "ek": 1014,
    "kıs": 1015,
    "mesinin": 1016,
    "şah": 1017,
    "edilen": 1018,
    "diği": 1019,
    "uk": 1020,
    "nek": 1021,
    "kaldı": 1022,
    "inden": 1023,
    "atat": 1024,
    "oluş": 1025,
    "aştır": 1026,
    "tep": 1027,
    "temmuz": 1028,
    "gan": 1029,
    "askeri": 1030,
    "gazete": 1031,
    "kâ": 1032,
    "har": 1033,
    "park": 1034,
    "toprakları": 1035,
    "şev": 1036,
    "inci": 1037,
    "sek": 1038,
    "ocak": 1039,
    "yav": 1040,
    "ş": 1041,
    "layan": 1042,
    "κ": 1043,
    "istanbul": 1044,
    "kayb": 1045,
    "süre": 1046,
    "ki": 1047,
    "ilik": 1048,
    "res": 1049,
    "lerine": 1050,
    "belir": 1051,
    "böl": 1052,
    "kişi": 1053,
    "ilişk": 1054,
    "u": 1055,
    "ın": 1056,
    "isti": 1057,
    "oloji": 1058,
    "may": 1059,
    "kiş": 1060,
    "hanım": 1061,
    "ihti": 1062,
    "son": 1063,
    "yerek": 1064,
    "ord": 1065,
    "me": 1066,
    "ça": 1067,
    "çoc": 1068,
    "ett": 1069,
    "barı": 1070,
    "köp": 1071,
    "ğunu": 1072,
    "murad": 1073,
    "der": 1074,
    "tesi": 1075,
    "abdül": 1076,
    "batı": 1077,
    "gı": 1078,
    "grubu": 1079,
    "aret": 1080,
    "kası": 1081,
    "çar": 1082,
    "veya": 1083,
    "ı": 1084,
    "eski": 1085,
    "gazi": 1086,
    "van": 1087,
    "hızlı": 1088,
    "gem": 1089,
    "ğu": 1090,
    "olan": 1091,
    "şe": 1092,
    "itti": 1093,
    "dönemde": 1094,
    "olduk": 1095,
    "eli": 1096,
    "genel": 1097,
    "göster": 1098,
    "usunda": 1099,
    "tic": 1100,
    "sır": 1101,
    "to": 1102,
    "ni": 1103,
    "unlu": 1104,
    "koca": 1105,
    "ınır": 1106,
    "larak": 1107,
    "bölgede": 1108,
    "rak": 1109,
    "tarafından": 1110,
    "at": 1111,
    "olay": 1112,
    "ayi": 1113,
    "sivas": 1114,
    "imparator": 1115,
    "ılık": 1116,
    "teş": 1117,
    "tem": 1118,
    "neden": 1119,
    "ğr": 1120,
    "ku": 1121,
    "ege": 1122,
    "yaptığı": 1123,
    "ulaşım": 1124,
    "hare": 1125,
    "üm": 1126,
    "özellikle": 1127,
    "ül": 1128,
    "ğini": 1129,
    "ka": 1130,
    "ilg": 1131,
    "lî": 1132,
    "den": 1133,
    "lim": 1134,
    "î": 1135,
    "düzenlen": 1136,
    "ul": 1137,
    "–": 1138,
    "mur": 1139,
    "soyadı": 1140,
    "arak": 1141,
    "mali": 1142,
    "kuv": 1143,
    "yordu": 1144,
    "kazandı": 1145,
    "diğ": 1146,
    "dönem": 1147,
    "oyun": 1148,
    "karadeniz": 1149,
    "antlaş": 1150,
    "q": 1151,
    "akdeniz": 1152,
    "ayan": 1153,
    "yalnızca": 1154,
    "masında": 1155,
    "η": 1156,
    "tam": 1157,
    "et": 1158,
    "eyl": 1159,
    "ana": 1160,
    "anad": 1161,
    "itilaf": 1162,
    "ik": 1163,
    "cağı": 1164,
    "dâ": 1165,
    "italya": 1166,
    "8": 1167,
    "savun": 1168,
    "harbiye": 1169,
    "?": 1170,
    "imparatorluğun": 1171,
    "olduğu": 1172,
    "1921": 1173,
    "sahil": 1174,
    "tarih": 1175,
    "ter": 1176,
    "leştir": 1177,
    "çalışma": 1178,
    "sebe": 1179,
    "mesini": 1180,
    "lerle": 1181,
    "cak": 1182,
    "nüfusun": 1183,
    "ların": 1184,
    "ben": 1185,
    "şek": 1186,
    "bağı": 1187,
    "üzerine": 1188,
    "lak": 1189,
    "koru": 1190,
    "abilir": 1191,
    "!": 1192,
    "gerçekleşen": 1193,
    "fazla": 1194,
    "ak": 1195,
    "oluştur": 1196,
    "osmanlı": 1197,
    "kür": 1198,
    "emr": 1199,
    "uş": 1200,
    "ün": 1201,
    "tir": 1202,
    "ë": 1203,
    "yas": 1204,
    "ders": 1205,
    "kara": 1206,
    "boğazı": 1207,
    "boyun": 1208,
    "uklu": 1209,
    "askerî": 1210,
    "leyen": 1211,
    "saltanat": 1212,
    "hukuk": 1213,
    "makta": 1214,
    "kil": 1215,
    "yle": 1216,
    "doğru": 1217,
    "toplam": 1218,
    "sınırları": 1219,
    "değer": 1220,
    "ndan": 1221,
    "yol": 1222,
    "kurul": 1223,
    "lere": 1224,
    "indeki": 1225,
    "telgraf": 1226,
    "silah": 1227,
    "ά": 1228,
    "pol": 1229,
    "rika": 1230,
    "yla": 1231,
    "görev": 1232,
    "g": 1233,
    "geri": 1234,
    "mustafa": 1235,
    "rus": 1236,
    "19": 1237,
    "üş": 1238,
    "kong": 1239,
    "say": 1240,
    "çeşitli": 1241,
    "ardından": 1242,
    "sim": 1243,
    "savaş": 1244,
    "hava": 1245,
    "ydi": 1246,
    "ilan": 1247,
    "komutan": 1248,
    "metre": 1249,
    "mayıs": 1250,
    "ayak": 1251,
    "çok": 1252,
    "bastır": 1253,
    "şekl": 1254,
    "tes": 1255,
    "ğı": 1256,
    "ʼ": 1257,
    "96": 1258,
    "n": 1259,
    "sev": 1260,
    "elde": 1261,
    "sız": 1262,
    "iskender": 1263,
    "yürüt": 1264,
    "tak": 1265,
    "dok": 1266,
    "med": 1267,
    "boyunca": 1268,
    "z": 1269,
    "plan": 1270,
    "meleri": 1271,
    "ar": 1272,
    "ancak": 1273,
    "çak": 1274,
    "ise": 1275,
    "gör": 1276,
    "italyan": 1277,
    "laştır": 1278,
    "dağ": 1279,
    "hav": 1280,
    "ası": 1281,
    "sektör": 1282,
    "stan": 1283,
    "nüf": 1284,
    "kurumu": 1285,
    "lerde": 1286,
    "kaz": 1287,
    "çek": 1288,
    "ل": 1289,
    "lay": 1290,
    "lat": 1291,
    "ladı": 1292,
    "ran": 1293,
    "süt": 1294,
    "miyet": 1295,
    "meler": 1296,
    "tra": 1297,
    "yarımada": 1298,
    "yarı": 1299,
    "л": 1300,
    "lik": 1301,
    "kale": 1302,
    "yüksel": 1303,
    "00": 1304,
    "ket": 1305,
    "sınır": 1306,
    "giriş": 1307,
    "üldü": 1308,
    "etmiştir": 1309,
    "è": 1310,
    "yakın": 1311,
    "1922": 1312,
    "kam": 1313,
    "kurdu": 1314,
    "lem": 1315,
    "yıllarda": 1316,
    "çoğunlu": 1317,
    "re": 1318,
    "yaşa": 1319,
    "far": 1320,
    "yanı": 1321,
    "det": 1322,
    "kontrol": 1323,
    "rü": 1324,
    "gin": 1325,
    "sonrasında": 1326,
    "yön": 1327,
    "erz": 1328,
    "fat": 1329,
    "besi": 1330,
    "şi": 1331,
    "bazı": 1332,
    "lük": 1333,
    "ılma": 1334,
    "ştü": 1335,
    "tarihinde": 1336,
    "zor": 1337,
    "onun": 1338,
    "kuruldu": 1339,
    "rar": 1340,
    "birbir": 1341,
    "teşkil": 1342,
    "olu": 1343,
    "barış": 1344,
    "teknik": 1345,
    "sinde": 1346,
    "erk": 1347,
    "larda": 1348,
    "“": 1349,
    "dern": 1350,
    "rol": 1351,
    "una": 1352,
    "şehirde": 1353,
    "yılları": 1354,
    "mis": 1355,
    "koy": 1356,
    "9": 1357,
    "rağmen": 1358,
    "sistemi": 1359,
    "edir": 1360,
    "sür": 1361,
    "larıyla": 1362,
    "antlaşması": 1363,
    "öyle": 1364,
    "naz": 1365,
    "veren": 1366,
    "yurt": 1367,
    "manın": 1368,
    "ayrıca": 1369,
    "1912": 1370,
    "trak": 1371,
    "git": 1372,
    "iliş": 1373,
    "kazan": 1374,
    "dür": 1375,
    "toplu": 1376,
    "eş": 1377,
    "cumhur": 1378,
    "hey": 1379,
    "devr": 1380,
    "sul": 1381,
    "sonucu": 1382,
    "erek": 1383,
    "د": 1384,
    "bun": 1385,
    "50": 1386,
    "başlat": 1387,
    "masını": 1388,
    "ük": 1389,
    "vay": 1390,
    "kaldır": 1391,
    "kor": 1392,
    "üniversitesi": 1393,
    "müs": 1394,
    "…": 1395,
    "hâline": 1396,
    "iddi": 1397,
    "1923": 1398,
    "seç": 1399,
    "medi": 1400,
    "değiştir": 1401,
    "beylik": 1402,
    "matik": 1403,
    "milletler": 1404,
    "gir": 1405,
    "ilerle": 1406,
    "eylül": 1407,
    "nu": 1408,
    "bil": 1409,
    "il": 1410,
    "kul": 1411,
    "hazır": 1412,
    "15": 1413,
    "da": 1414,
    "par": 1415,
    "ankara": 1416,
    "bol": 1417,
    "he": 1418,
    "ölçü": 1419,
    "li": 1420,
    "diren": 1421,
    "hem": 1422,
    "başlayan": 1423,
    "ledi": 1424,
    "eser": 1425,
    "görüş": 1426,
    "13": 1427,
    "lili": 1428,
    "aşa": 1429,
    "yüzyılda": 1430,
    "müzesi": 1431,
    "yapımı": 1432,
    "hep": 1433,
    "oranı": 1434,
    "konusunda": 1435,
    "tur": 1436,
    "kullanıl": 1437,
    "alan": 1438,
    "mektedir": 1439,
    "arap": 1440,
    "nı": 1441,
    "konstantin": 1442,
    "bul": 1443,
    "küçük": 1444,
    "larının": 1445,
    "sultan": 1446,
    "kurmay": 1447,
    "bakanlığı": 1448,
    "şehir": 1449,
    "yeniden": 1450,
    "merkezi": 1451,
    "şt": 1452,
    "dde": 1453,
    "inşa": 1454,
    "ekono": 1455,
    "gü": 1456,
    "dik": 1457,
    "ust": 1458,
    "dünya": 1459,
    "ge": 1460,
    "bile": 1461,
    "hâki": 1462,
    "meden": 1463,
    "st": 1464,
    "sat": 1465,
    "bal": 1466,
    "var": 1467,
    "sona": 1468,
    "por": 1469,
    "hay": 1470,
    "eğitim": 1471,
    "ra": 1472,
    "iyet": 1473,
    "ilmiştir": 1474,
    "nis": 1475,
    "sin": 1476,
    "ayr": 1477,
    "müz": 1478,
    "doğuda": 1479,
    "las": 1480,
    "geldi": 1481,
    "ülkede": 1482,
    "ayı": 1483,
    "hen": 1484,
    "eğit": 1485,
    "ye": 1486,
    "müş": 1487,
    "1881": 1488,
    "tor": 1489,
    "halk": 1490,
    "or": 1491,
    "arasındaki": 1492,
    "16": 1493,
    "ılığı": 1494,
    "ortak": 1495,
    "cunda": 1496,
    "lo": 1497,
    "maları": 1498,
    "ır": 1499,
    "𐰼": 1500,
    "itik": 1501,
    "ının": 1502,
    "lığı": 1503,
    "dör": 1504,
    "tut": 1505,
    "fak": 1506,
    "fi": 1507,
    "edil": 1508,
    "çi": 1509,
    "kül": 1510,
    "sel": 1511,
    "adıyla": 1512,
    "her": 1513,
    "masıyla": 1514,
    "yağı": 1515,
    "kadın": 1516,
    "ştu": 1517,
    "ço": 1518,
    "ö": 1519,
    "kö": 1520,
    "dol": 1521,
    "lararası": 1522,
    "fatih": 1523,
    "tal": 1524,
    "10": 1525,
    "gönder": 1526,
    "yık": 1527,
    "tin": 1528,
    "yaklaşık": 1529,
    "beyliği": 1530,
    "ifade": 1531,
    "mayı": 1532,
    "ırı": 1533,
    "ekim": 1534,
    "luk": 1535,
    "müştür": 1536,
    "av": 1537,
    "lığ": 1538,
    "esi": 1539,
    "bugün": 1540,
    "ok": 1541,
    "egemen": 1542,
    "arı": 1543,
    "getir": 1544,
    "meye": 1545,
    "ırak": 1546,
    "ve": 1547,
    "okul": 1548,
    "in": 1549,
    "kentin": 1550,
    "yaşayan": 1551,
    "bilinen": 1552,
    "ğ": 1553,
    "yüzyıl": 1554,
    "cid": 1555,
    "süleyman": 1556,
    "şa": 1557,
    "hale": 1558,
    "amer": 1559,
    "anayasa": 1560,
    "karşıl": 1561,
    "usu": 1562,
    "değişik": 1563,
    "iş": 1564,
    "so": 1565,
    "mesinden": 1566,
    "mehmed": 1567,
    "kiye": 1568,
    "187": 1569,
    "ilçe": 1570,
    "us": 1571,
    "gayrimüslim": 1572,
    "ze": 1573,
    "donan": 1574,
    "üzerinde": 1575,
    "des": 1576,
    "zan": 1577,
    "çanakkale": 1578,
    "özgür": 1579,
    "dili": 1580,
    "sadece": 1581,
    "eder": 1582,
    "ür": 1583,
    "an": 1584,
    "ısbn": 1585,
    "mez": 1586,
    "kısmı": 1587,
    "gi": 1588,
    "ştir": 1589,
    "döne": 1590,
    "ciler": 1591,
    "r": 1592,
    "ıl": 1593,
    "ilen": 1594,
    "anlam": 1595,
    "acak": 1596,
    "atatürk": 1597,
    "'": 1598,
    "fendi": 1599,
    "milyon": 1600,
    "ağaç": 1601,
    "fark": 1602,
    "tık": 1603,
    "gün": 1604,
    "devletleri": 1605,
    "gâ": 1606,
    "lisesi": 1607,
    "hil": 1608,
    "nok": 1609,
    "um": 1610,
    "anne": 1611,
    "cumhuriyet": 1612,
    "antlaşma": 1613,
    "ünden": 1614,
    "pi": 1615,
    "daha": 1616,
    "ث": 1617,
    "nden": 1618,
    "güven": 1619,
    "sonra": 1620,
    "dağı": 1621,
    "dem": 1622,
    "destek": 1623,
    "çık": 1624,
    "kar": 1625,
    "ordusu": 1626,
    "dönemi": 1627,
    "sonraki": 1628,
    "ölüm": 1629,
    "boz": 1630,
    "aç": 1631,
    "mah": 1632,
    "duğu": 1633,
    "adını": 1634,
    "tarihî": 1635,
    "soya": 1636,
    "ger": 1637,
    "ılması": 1638,
    "atı": 1639,
    "havalimanı": 1640,
    "gın": 1641,
    "sun": 1642,
    "−": 1643,
    "v": 1644,
    "gerçek": 1645,
    "üf": 1646,
    "asının": 1647,
    "000": 1648,
    "3": 1649,
    "sam": 1650,
    "belirt": 1651,
    "yönet": 1652,
    "gra": 1653,
    "55": 1654,
    "birlik": 1655,
    "sofya": 1656,
    "kürt": 1657,
    "d": 1658,
    "san": 1659,
    "ten": 1660,
    "bağlan": 1661,
    "ada": 1662,
    "madde": 1663,
    "mısır": 1664,
    "1920": 1665,
    "7": 1666,
    "doğu": 1667,
    "inde": 1668,
    "ha": 1669,
    "değiş": 1670,
    "ν": 1671,
    "ley": 1672,
    "ım": 1673,
    "liğinde": 1674,
    "em": 1675,
    "mey": 1676,
    "gelenek": 1677,
    "1": 1678,
    "isi": 1679,
    "cumhurbaşkanlığı": 1680,
    "ber": 1681,
    "oran": 1682,
    "taht": 1683,
    "yaptı": 1684,
    "çıkar": 1685,
    "kol": 1686,
    "vi": 1687,
    "dr": 1688,
    "dün": 1689,
    "ital": 1690,
    "mal": 1691,
    "konu": 1692,
    "layarak": 1693,
    "faal": 1694,
    "aş": 1695,
    "şehrin": 1696,
    "göre": 1697,
    "değil": 1698,
    ";": 1699,
    "mu": 1700,
    "trakya": 1701,
    "bilin": 1702,
    "yardı": 1703,
    "ittihat": 1704,
    "çat": 1705,
    "hane": 1706,
    "komutanı": 1707,
    "61": 1708,
    "çağ": 1709,
    "faz": 1710,
    "maktadır": 1711,
    "olduğunu": 1712,
    "ken": 1713,
    "ham": 1714,
    "°": 1715,
    "ği": 1716,
    "süren": 1717,
    "yaz": 1718,
    "ticaret": 1719,
    "men": 1720,
    "hr": 1721,
    "halif": 1722,
    "ta": 1723,
    "mutfa": 1724,
    "yapıldı": 1725,
    "teh": 1726,
    "su": 1727,
    "mücadele": 1728,
    "ayrı": 1729,
    "tığı": 1730,
    "maz": 1731,
    "avru": 1732,
    "bekir": 1733,
    "mekteydi": 1734,
    "ülkenin": 1735,
    "geçirdi": 1736,
    "e": 1737,
    "lider": 1738,
    "kamu": 1739,
    "cemiyet": 1740,
    "moğol": 1741,
    "çevr": 1742,
    "feth": 1743,
    "yet": 1744,
    "lan": 1745,
    "14": 1746,
    "sen": 1747,
    "bu": 1748,
    "ata": 1749,
    "193": 1750,
    "olmak": 1751,
    "şti": 1752,
    "istan": 1753,
    "nın": 1754,
    "bas": 1755,
    "nda": 1756,
    "bak": 1757,
    "let": 1758,
    "avrupa": 1759,
    "öy": 1760,
    "imzalan": 1761,
    "ab": 1762,
    "diplo": 1763,
    "spor": 1764,
    "ir": 1765,
    "roma": 1766,
    "edilmiştir": 1767,
    "oloj": 1768,
    "bü": 1769,
    "mehmet": 1770,
    "diğini": 1771,
    "çoğ": 1772,
    "lüğü": 1773,
    "mil": 1774,
    "ā": 1775,
    "kitap": 1776,
    "𐰇": 1777,
    "devri": 1778,
    "5": 1779,
    "sonu": 1780,
    "ilere": 1781,
    "fil": 1782,
    "hükûmeti": 1783,
    "/": 1784,
    "no": 1785,
    "haliç": 1786,
    "meyi": 1787,
    "kıyı": 1788,
    "ri": 1789,
    "has": 1790,
    "pan": 1791,
    "altı": 1792,
    "kas": 1793,
    "çalı": 1794,
    "kend": 1795,
    "la": 1796,
    "kay": 1797,
    "yıldır": 1798,
    "dâhil": 1799,
    "bulunmaktadır": 1800,
    "ildi": 1801,
    "yat": 1802,
    "meydan": 1803,
    "şeyh": 1804,
    "komutasında": 1805,
    "je": 1806,
    "sık": 1807,
    "sade": 1808,
    "ettir": 1809,
    "polis": 1810,
    "zorunda": 1811,
    "kurtul": 1812,
    "sil": 1813,
    "dü": 1814,
    "kurt": 1815,
    "boy": 1816,
    "m": 1817,
    "kita": 1818,
    "iz": 1819,
    "ator": 1820,
    "tanzimat": 1821,
    "ordu": 1822,
    "unu": 1823,
    "per": 1824,
    "huku": 1825,
    "ζ": 1826,
    "islam": 1827,
    "üne": 1828,
    "hu": 1829,
    "bulgaristan": 1830,
    "dur": 1831,
    "çan": 1832,
    "devletin": 1833,
    "200": 1834,
    "bağlı": 1835,
    "sında": 1836,
    "lam": 1837,
    "din": 1838,
    "birleşik": 1839,
    "yayım": 1840,
    "28": 1841,
    "şampiyon": 1842,
    "lendir": 1843,
    "imzalanan": 1844,
    "pos": 1845,
    "yardım": 1846,
    "18": 1847,
    "mer": 1848,
    "beşiktaş": 1849,
    "siyasi": 1850,
    "bilir": 1851,
    "tev": 1852,
    "ilk": 1853,
    "dar": 1854,
    "memlûk": 1855,
    "а": 1856,
    "muş": 1857,
    "bey": 1858,
    "sur": 1859,
    "gayrim": 1860,
    "padi": 1861,
    "dil": 1862,
    "kes": 1863,
    "hemen": 1864,
    "lara": 1865,
    "nüfusu": 1866,
    "haz": 1867,
    "iki": 1868,
    "zi": 1869,
    "haziran": 1870,
    "şubat": 1871,
    "yılında": 1872,
    "marmara": 1873,
    "pek": 1874,
    "kal": 1875,
    "oğulları": 1876,
    "boğaz": 1877,
    "zafer": 1878,
    "kabul": 1879,
    "mik": 1880,
    "sonunda": 1881,
    "fır": 1882,
    "ileri": 1883,
    "liğini": 1884,
    "yılı": 1885,
    "mişti": 1886,
    "sorun": 1887,
    "yapan": 1888,
    "saldırı": 1889,
    "refor": 1890,
    "o": 1891,
    "laz": 1892,
    "karşı": 1893,
    "irdi": 1894,
    "mon": 1895,
    "kolordu": 1896,
    "orta": 1897,
    "elik": 1898,
    "sonr": 1899,
    "çeşit": 1900,
    "beşik": 1901,
    "ʻ": 1902,
    "ölç": 1903,
    "raki": 1904,
    "site": 1905,
    "bit": 1906,
    "üncü": 1907,
    "lerden": 1908,
    "ılan": 1909,
    "çıkarılan": 1910,
    "cek": 1911,
    "leşme": 1912,
    "ına": 1913,
    "ό": 1914,
    "tek": 1915,
    "gider": 1916,
    "kilo": 1917,
    "insan": 1918,
    "yemek": 1919,
    "leri": 1920,
    "kı": 1921,
    "y": 1922,
    "hanedan": 1923,
    "aldı": 1924,
    "ker": 1925,
    "kup": 1926,
    "meclisi": 1927,
    "kurulu": 1928,
    "geçir": 1929,
    "üni": 1930,
    "lardı": 1931,
    "ver": 1932,
    "millet": 1933,
    "anadolu": 1934,
    "sanat": 1935,
    "tr": 1936,
    "fet": 1937,
    "durum": 1938,
    "yü": 1939,
    "ras": 1940,
    "araştır": 1941,
    "daş": 1942,
    "mahal": 1943,
    "ro": 1944,
    "yak": 1945,
    "tasında": 1946,
    "mi": 1947,
    "vet": 1948,
    "şma": 1949,
    "ilgi": 1950,
    "aynı": 1951,
    "sinin": 1952,
    "leşti": 1953,
    "meş": 1954,
    "politik": 1955,
    "mev": 1956,
    "gel": 1957,
    "seçim": 1958,
    "dos": 1959,
    "siya": 1960,
    "ser": 1961,
    "yönetim": 1962,
    "orman": 1963,
    "é": 1964,
    "ırdı": 1965
}